#pragma once

// Auto-generated TFLite model
const unsigned int model_tflite_len = 6684;
const unsigned char model_tflite[] = {
  0x1c, 0x00, 0x00, 0x00, 0x54, 0x46, 0x4c, 0x33, 0x14, 0x00, 0x20, 0x00,
  0x1c, 0x00, 0x18, 0x00, 0x14, 0x00, 0x10, 0x00, 0x0c, 0x00, 0x00, 0x00,
  0x08, 0x00, 0x04, 0x00, 0x14, 0x00, 0x00, 0x00, 0x1c, 0x00, 0x00, 0x00,
  0x98, 0x00, 0x00, 0x00, 0xf0, 0x00, 0x00, 0x00, 0x9c, 0x13, 0x00, 0x00,
  0xac, 0x13, 0x00, 0x00, 0xb8, 0x19, 0x00, 0x00, 0x03, 0x00, 0x00, 0x00,
  0x01, 0x00, 0x00, 0x00, 0x10, 0x00, 0x00, 0x00, 0x00, 0x00, 0x0a, 0x00,
  0x10, 0x00, 0x0c, 0x00, 0x08, 0x00, 0x04, 0x00, 0x0a, 0x00, 0x00, 0x00,
  0x0c, 0x00, 0x00, 0x00, 0x1c, 0x00, 0x00, 0x00, 0x3c, 0x00, 0x00, 0x00,
  0x0f, 0x00, 0x00, 0x00, 0x73, 0x65, 0x72, 0x76, 0x69, 0x6e, 0x67, 0x5f,
  0x64, 0x65, 0x66, 0x61, 0x75, 0x6c, 0x74, 0x00, 0x01, 0x00, 0x00, 0x00,
  0x04, 0x00, 0x00, 0x00, 0x90, 0xff, 0xff, 0xff, 0x0a, 0x00, 0x00, 0x00,
  0x04, 0x00, 0x00, 0x00, 0x08, 0x00, 0x00, 0x00, 0x6f, 0x75, 0x74, 0x70,
  0x75, 0x74, 0x5f, 0x30, 0x00, 0x00, 0x00, 0x00, 0x01, 0x00, 0x00, 0x00,
  0x04, 0x00, 0x00, 0x00, 0x4a, 0xec, 0xff, 0xff, 0x04, 0x00, 0x00, 0x00,
  0x0c, 0x00, 0x00, 0x00, 0x6b, 0x65, 0x72, 0x61, 0x73, 0x5f, 0x74, 0x65,
  0x6e, 0x73, 0x6f, 0x72, 0x00, 0x00, 0x00, 0x00, 0x02, 0x00, 0x00, 0x00,
  0x34, 0x00, 0x00, 0x00, 0x04, 0x00, 0x00, 0x00, 0xdc, 0xff, 0xff, 0xff,
  0x0d, 0x00, 0x00, 0x00, 0x04, 0x00, 0x00, 0x00, 0x13, 0x00, 0x00, 0x00,
  0x43, 0x4f, 0x4e, 0x56, 0x45, 0x52, 0x53, 0x49, 0x4f, 0x4e, 0x5f, 0x4d,
  0x45, 0x54, 0x41, 0x44, 0x41, 0x54, 0x41, 0x00, 0x08, 0x00, 0x0c, 0x00,
  0x08, 0x00, 0x04, 0x00, 0x08, 0x00, 0x00, 0x00, 0x0c, 0x00, 0x00, 0x00,
  0x04, 0x00, 0x00, 0x00, 0x13, 0x00, 0x00, 0x00, 0x6d, 0x69, 0x6e, 0x5f,
  0x72, 0x75, 0x6e, 0x74, 0x69, 0x6d, 0x65, 0x5f, 0x76, 0x65, 0x72, 0x73,
  0x69, 0x6f, 0x6e, 0x00, 0x0e, 0x00, 0x00, 0x00, 0xa8, 0x12, 0x00, 0x00,
  0xa0, 0x12, 0x00, 0x00, 0x50, 0x12, 0x00, 0x00, 0x34, 0x12, 0x00, 0x00,
  0x64, 0x11, 0x00, 0x00, 0x54, 0x09, 0x00, 0x00, 0x44, 0x01, 0x00, 0x00,
  0xb4, 0x00, 0x00, 0x00, 0xac, 0x00, 0x00, 0x00, 0xa4, 0x00, 0x00, 0x00,
  0x9c, 0x00, 0x00, 0x00, 0x94, 0x00, 0x00, 0x00, 0x74, 0x00, 0x00, 0x00,
  0x04, 0x00, 0x00, 0x00, 0xfe, 0xec, 0xff, 0xff, 0x04, 0x00, 0x00, 0x00,
  0x60, 0x00, 0x00, 0x00, 0x10, 0x00, 0x00, 0x00, 0x00, 0x00, 0x00, 0x00,
  0x08, 0x00, 0x0e, 0x00, 0x08, 0x00, 0x04, 0x00, 0x08, 0x00, 0x00, 0x00,
  0x10, 0x00, 0x00, 0x00, 0x24, 0x00, 0x00, 0x00, 0x00, 0x00, 0x06, 0x00,
  0x08, 0x00, 0x04, 0x00, 0x06, 0x00, 0x00, 0x00, 0x04, 0x00, 0x00, 0x00,
  0x00, 0x00, 0x00, 0x00, 0x0c, 0x00, 0x18, 0x00, 0x14, 0x00, 0x10, 0x00,
  0x0c, 0x00, 0x04, 0x00, 0x0c, 0x00, 0x00, 0x00, 0x3e, 0x64, 0xa5, 0x89,
  0x55, 0xe7, 0xe1, 0x63, 0x02, 0x00, 0x00, 0x00, 0x02, 0x00, 0x00, 0x00,
  0x04, 0x00, 0x00, 0x00, 0x06, 0x00, 0x00, 0x00, 0x32, 0x2e, 0x32, 0x31,
  0x2e, 0x30, 0x00, 0x00, 0x6a, 0xed, 0xff, 0xff, 0x04, 0x00, 0x00, 0x00,
  0x10, 0x00, 0x00, 0x00, 0x31, 0x2e, 0x35, 0x2e, 0x30, 0x00, 0x00, 0x00,
  0x00, 0x00, 0x00, 0x00, 0x00, 0x00, 0x00, 0x00, 0x28, 0xe8, 0xff, 0xff,
  0x2c, 0xe8, 0xff, 0xff, 0x30, 0xe8, 0xff, 0xff, 0x34, 0xe8, 0xff, 0xff,
  0x96, 0xed, 0xff, 0xff, 0x04, 0x00, 0x00, 0x00, 0x80, 0x00, 0x00, 0x00,
  0x50, 0xbf, 0x6b, 0xbe, 0x6c, 0x9a, 0xd6, 0x3e, 0x55, 0xbd, 0xb7, 0x3d,
  0x67, 0xd2, 0x5b, 0x3e, 0x21, 0xf9, 0x67, 0x3e, 0x57, 0x6d, 0xe1, 0x3e,
  0x4b, 0xbf, 0x20, 0x3d, 0x25, 0xa6, 0x5c, 0x3e, 0xa9, 0xeb, 0x21, 0x3e,
  0xef, 0x4e, 0x2e, 0xbe, 0xd3, 0x2f, 0x0f, 0xbe, 0x93, 0x5f, 0xe6, 0xbc,
  0x4c, 0x5a, 0x70, 0xbe, 0xc5, 0x8b, 0x80, 0xbe, 0x17, 0x94, 0x3c, 0x3e,
  0x75, 0x5b, 0xff, 0x3c, 0xc2, 0x3c, 0x53, 0xbe, 0xcd, 0xd2, 0x83, 0xbe,
  0xaf, 0x16, 0x21, 0xbe, 0x75, 0x3d, 0xdf, 0x3e, 0x1a, 0xeb, 0xfd, 0x3e,
  0xf9, 0xc7, 0x83, 0xbe, 0xd7, 0xf4, 0x83, 0xbe, 0x34, 0xa0, 0xb9, 0xbd,
  0x80, 0x05, 0x8a, 0x3e, 0x4f, 0x57, 0x00, 0x3e, 0x24, 0xb4, 0xcf, 0x3e,
  0xc3, 0xc0, 0x25, 0x3e, 0x6b, 0xb7, 0x56, 0x3d, 0x9f, 0x0a, 0x7d, 0xbe,
  0x80, 0x5b, 0x3e, 0x3c, 0xa9, 0xd9, 0xc3, 0x3e, 0x22, 0xee, 0xff, 0xff,
  0x04, 0x00, 0x00, 0x00, 0x00, 0x08, 0x00, 0x00, 0xad, 0x34, 0x74, 0x3e,
  0x02, 0x2b, 0x47, 0x3e, 0xce, 0x39, 0x0e, 0xbe, 0x48, 0x7a, 0x52, 0x3e,
  0xef, 0x9f, 0xe6, 0x3c, 0x0f, 0xff, 0xdf, 0xbe, 0x9a, 0xce, 0x35, 0xbd,
  0x50, 0x68, 0x83, 0xbe, 0xdb, 0x87, 0x87, 0x3d, 0xa0, 0x0f, 0xb9, 0x3e,
  0xf6, 0xb7, 0x5d, 0xbd, 0x85, 0x34, 0xa8, 0x3d, 0x12, 0x72, 0x10, 0x3f,
  0xfc, 0xa0, 0xd2, 0x3e, 0xac, 0x51, 0x90, 0x3e, 0x24, 0x6d, 0xf2, 0xbd,
  0x0d, 0xcf, 0xdd, 0xbd, 0xee, 0x5a, 0x7f, 0xbe, 0x4d, 0xa5, 0x5a, 0x3e,
  0x97, 0xd7, 0xad, 0xbe, 0x54, 0xc7, 0xd0, 0xbd, 0x9b, 0x00, 0xd3, 0x3c,
  0x65, 0xbc, 0xa5, 0x3e, 0xa3, 0xbf, 0xd6, 0xbd, 0xf6, 0x0e, 0xde, 0x3c,
  0xe0, 0xff, 0xf5, 0xbe, 0x1d, 0xf4, 0x89, 0x3e, 0x7c, 0x6d, 0x98, 0x3e,
  0x2f, 0x9d, 0x98, 0xbe, 0x7f, 0xc4, 0xf6, 0xbd, 0xee, 0x15, 0x5d, 0xbd,
  0xf5, 0x2d, 0xf9, 0xbe, 0xe0, 0x7f, 0x61, 0xbe, 0x92, 0xee, 0xed, 0xbd,
  0x28, 0xe0, 0xd4, 0x3d, 0x60, 0x99, 0x1a, 0x3e, 0xbe, 0x29, 0xf2, 0xbd,
  0x2e, 0x1e, 0x84, 0x3e, 0xf0, 0x73, 0x79, 0x3e, 0x08, 0x20, 0x94, 0x3e,
  0xb5, 0xe3, 0xf6, 0x3e, 0x0f, 0x64, 0xf6, 0xbd, 0xcf, 0xc7, 0x16, 0x3e,
  0x5f, 0x90, 0x7c, 0xbe, 0x2a, 0x2e, 0x9e, 0xbd, 0x40, 0xb4, 0x8c, 0xbe,
  0xe6, 0x1b, 0xed, 0xbd, 0xbc, 0x73, 0x4c, 0xbe, 0x3f, 0x5d, 0x87, 0xbe,
  0x23, 0x27, 0x41, 0x3e, 0x11, 0x70, 0x7e, 0x3b, 0x15, 0xcf, 0xc1, 0xbe,
  0x59, 0x48, 0xdb, 0xbd, 0xc2, 0xc7, 0x93, 0xbe, 0x5b, 0x8f, 0x18, 0x3d,
  0xa9, 0x83, 0x02, 0xbd, 0x82, 0xd5, 0xff, 0xbd, 0x09, 0x26, 0xa0, 0xbe,
  0xb2, 0x18, 0xf3, 0x3e, 0xd6, 0x5b, 0x79, 0x3e, 0x7d, 0x20, 0xdc, 0xbe,
  0x77, 0x9b, 0x37, 0xbe, 0x46, 0x3a, 0x84, 0x3d, 0x08, 0xd3, 0xba, 0xbd,
  0xcd, 0xb3, 0xbf, 0xbe, 0x57, 0xc9, 0x16, 0x3c, 0x79, 0x0a, 0x7c, 0x3e,
  0x19, 0xd1, 0xa4, 0x3d, 0x74, 0xba, 0xa2, 0xbd, 0x74, 0x39, 0x6c, 0xbe,
  0xf0, 0xce, 0x2f, 0xbd, 0x1b, 0x91, 0xb2, 0xbd, 0x31, 0xee, 0x8b, 0x3e,
  0x1e, 0x06, 0xea, 0xbe, 0xe6, 0xc5, 0x0a, 0x3e, 0xd6, 0xa6, 0x45, 0x3c,
  0x3e, 0x49, 0xd9, 0xbe, 0x92, 0x2c, 0x10, 0xbe, 0x9d, 0xfe, 0x70, 0xbe,
  0xee, 0xc8, 0xbb, 0xbd, 0x5c, 0x89, 0x4b, 0xbe, 0x89, 0x0c, 0x81, 0xbd,
  0xfa, 0xa4, 0xdb, 0x3e, 0x5f, 0x5a, 0x72, 0xbd, 0x73, 0xc3, 0x1d, 0x3f,
  0xe1, 0x05, 0x0c, 0x3c, 0x51, 0x7d, 0x5c, 0xbe, 0xec, 0x7e, 0x11, 0xbe,
  0x84, 0x1a, 0x2b, 0xbe, 0x8d, 0x7e, 0x8c, 0x3d, 0x5d, 0x02, 0x83, 0x3e,
  0xa5, 0x0c, 0x99, 0x3e, 0x53, 0xe9, 0x65, 0x3e, 0xc8, 0x19, 0x6e, 0xbe,
  0x9a, 0x51, 0xdc, 0xbe, 0x89, 0x93, 0xb9, 0xbe, 0x23, 0xa4, 0xb8, 0x3e,
  0x8f, 0x5c, 0x5a, 0xbd, 0xce, 0xce, 0x39, 0xbc, 0x2b, 0x67, 0x8d, 0xbe,
  0xb7, 0xe0, 0x2a, 0xbe, 0x58, 0x1c, 0x54, 0xbe, 0x2a, 0x2c, 0x6f, 0xbd,
  0x15, 0x82, 0x2f, 0x3e, 0x79, 0x00, 0x83, 0x3d, 0xc6, 0x1a, 0x91, 0x3d,
  0x0a, 0x72, 0x4d, 0x3e, 0x30, 0x18, 0x30, 0x3e, 0xab, 0xb6, 0x07, 0x3f,
  0xec, 0x96, 0x75, 0x3e, 0x57, 0x03, 0x0a, 0x3f, 0x27, 0xde, 0xaa, 0x3e,
  0xd2, 0xb6, 0x90, 0xbe, 0x94, 0x76, 0xa5, 0xbe, 0xfc, 0x17, 0x6e, 0xbd,
  0x4e, 0x10, 0x84, 0xbe, 0x7c, 0x88, 0x2d, 0xbc, 0xb0, 0x60, 0x0a, 0xbe,
  0x23, 0xbe, 0x9d, 0xbe, 0xc1, 0x86, 0x77, 0xbe, 0x68, 0x88, 0xb6, 0x3e,
  0x4e, 0x5f, 0x0c, 0xba, 0x4f, 0x6a, 0x8d, 0x3e, 0x92, 0xe5, 0x91, 0x3e,
  0x78, 0x21, 0xd4, 0x3e, 0x00, 0xb6, 0x41, 0x3b, 0xa0, 0xcd, 0xb9, 0x3e,
  0xb7, 0x68, 0xa9, 0xbc, 0x88, 0xee, 0x63, 0xbe, 0x29, 0xd0, 0xd2, 0x3e,
  0x2a, 0x64, 0xd2, 0x3e, 0x61, 0x1c, 0x8a, 0xbe, 0xc1, 0xd4, 0x87, 0x3d,
  0x19, 0xcf, 0x6a, 0xbe, 0xe6, 0x99, 0x8b, 0xbe, 0xec, 0x8a, 0x17, 0xbd,
  0x14, 0x3a, 0xd4, 0x3e, 0x92, 0x27, 0xc1, 0xbc, 0xc1, 0x6e, 0x56, 0xbd,
  0x06, 0x4f, 0x60, 0x3e, 0x5a, 0xcb, 0xab, 0xbe, 0xa2, 0xc7, 0x36, 0xbe,
  0x8f, 0xbc, 0x98, 0xbe, 0x0a, 0xa3, 0xf1, 0xbe, 0x50, 0xaf, 0x88, 0x3d,
  0xf6, 0xb3, 0x95, 0x3e, 0x3a, 0x21, 0xe1, 0xbe, 0x7d, 0xe6, 0x8b, 0x3e,
  0x82, 0x05, 0x56, 0xbe, 0x91, 0x6e, 0x96, 0x3c, 0x27, 0x6d, 0x40, 0xbe,
  0xf5, 0xc2, 0x62, 0xbe, 0xc7, 0x19, 0xd9, 0xbe, 0xbb, 0x3c, 0x03, 0x3e,
  0x87, 0x5b, 0x14, 0xbf, 0xdc, 0xe6, 0xf0, 0x3d, 0x88, 0x3b, 0xd1, 0xbe,
  0x11, 0xaa, 0xd3, 0xbe, 0xf7, 0x7c, 0x27, 0x3d, 0xd7, 0x0b, 0xfe, 0xba,
  0x6e, 0xf9, 0xba, 0xbe, 0xe9, 0x1a, 0x8d, 0xbd, 0x84, 0x3f, 0x63, 0xbe,
  0x76, 0x8c, 0xba, 0x3e, 0xe1, 0x27, 0xac, 0x3d, 0x24, 0x4f, 0x4c, 0xbe,
  0x41, 0xdb, 0x93, 0xbe, 0xbc, 0x4a, 0x01, 0xbe, 0xcb, 0xaa, 0x0c, 0x3e,
  0x7b, 0x74, 0x57, 0x3e, 0xa6, 0x78, 0xed, 0x3d, 0x9e, 0x9b, 0x20, 0x3e,
  0x42, 0xbf, 0x77, 0x3e, 0x18, 0xbe, 0xac, 0xbe, 0xd5, 0x2a, 0x54, 0x3d,
  0x09, 0x25, 0x07, 0x3d, 0x28, 0x45, 0x6f, 0x3d, 0xa0, 0x8b, 0xc8, 0x3e,
  0xf6, 0x21, 0xc4, 0xbc, 0x08, 0x57, 0x76, 0x3e, 0xc0, 0xc6, 0x7b, 0xbc,
  0xc5, 0x19, 0x23, 0x3e, 0x61, 0x41, 0x0a, 0x3e, 0x5a, 0xeb, 0xa1, 0x3d,
  0x99, 0xd1, 0xed, 0x3c, 0xae, 0xe4, 0x49, 0x3d, 0xb9, 0xb3, 0xda, 0xbe,
  0x45, 0xfa, 0x1d, 0xbd, 0x96, 0xe4, 0xe2, 0xbe, 0xb3, 0xd7, 0x93, 0xbe,
  0xa1, 0xae, 0x96, 0xbd, 0xea, 0x19, 0x07, 0xbe, 0x77, 0x5c, 0x2a, 0xbe,
  0x2a, 0x13, 0x7e, 0xbe, 0x0c, 0x76, 0x03, 0x3e, 0x88, 0x64, 0x5b, 0x3e,
  0x1a, 0x2d, 0x9b, 0xbd, 0x11, 0xd1, 0x02, 0xbe, 0x5e, 0xd0, 0x2c, 0xbe,
  0xe5, 0x45, 0x74, 0xbe, 0x48, 0x26, 0x37, 0xbc, 0xdf, 0x09, 0xa4, 0x3e,
  0xfe, 0x2c, 0x9d, 0x3e, 0xbc, 0x32, 0xd4, 0x3e, 0x4b, 0x4e, 0x32, 0xbe,
  0xb5, 0x3c, 0xe9, 0x3d, 0xe0, 0x9a, 0x29, 0x3e, 0x54, 0xa1, 0xe3, 0x3e,
  0x9c, 0x9f, 0xc8, 0xbe, 0xa9, 0x59, 0x87, 0xbe, 0xa4, 0x61, 0xb4, 0xbe,
  0x53, 0x4b, 0x5e, 0xbe, 0xab, 0x74, 0xef, 0x3d, 0x70, 0x62, 0x43, 0xbe,
  0x47, 0x3a, 0xaf, 0x3d, 0x8c, 0x5f, 0x23, 0x3d, 0x99, 0xe8, 0x36, 0x3d,
  0x08, 0x2c, 0xd0, 0x3e, 0x02, 0x9d, 0x52, 0xbe, 0x7c, 0x80, 0x69, 0xbe,
  0xf2, 0xb4, 0xb8, 0x3e, 0xfe, 0x4f, 0xe1, 0x3e, 0x75, 0x7a, 0xd8, 0x3e,
  0x75, 0xff, 0x17, 0x3e, 0xe8, 0xa5, 0xe7, 0xbe, 0x6b, 0x45, 0x11, 0xbd,
  0xcd, 0x3f, 0xa3, 0x3e, 0xb3, 0x55, 0x95, 0xbe, 0xc5, 0xf8, 0x82, 0x3e,
  0x5f, 0x9f, 0x00, 0xbe, 0x58, 0xb8, 0xc8, 0xbd, 0x24, 0xd7, 0x80, 0x3e,
  0x61, 0x60, 0x19, 0x3d, 0xf9, 0xcb, 0xc0, 0xbe, 0xb1, 0x90, 0xc6, 0x3e,
  0xf5, 0xf3, 0x16, 0xbe, 0x5c, 0xa2, 0xe1, 0xbe, 0x28, 0xef, 0x4e, 0xbd,
  0x8b, 0xd2, 0x9e, 0xbd, 0xb6, 0xe5, 0xfc, 0xbe, 0xcc, 0x15, 0x74, 0x3e,
  0xd5, 0xc7, 0x22, 0x3e, 0x25, 0x72, 0xd5, 0xbe, 0xce, 0x08, 0x82, 0x3e,
  0x9d, 0x2a, 0x5a, 0x3d, 0xeb, 0xf5, 0x9e, 0x3e, 0x95, 0x27, 0x94, 0x3e,
  0x35, 0xc7, 0xc1, 0xbd, 0xef, 0x7a, 0xb3, 0xbd, 0xd1, 0xc5, 0x89, 0xbe,
  0xa2, 0xe0, 0xa6, 0xbe, 0xeb, 0x22, 0x4a, 0x3e, 0x93, 0xb9, 0xc8, 0xbe,
  0xaf, 0x00, 0xa8, 0xbe, 0x63, 0x15, 0x19, 0xbe, 0x93, 0x4c, 0x50, 0xbe,
  0xa0, 0xbe, 0xd4, 0x3d, 0xd6, 0x1a, 0x5e, 0x3e, 0xd1, 0x75, 0x17, 0xbf,
  0x13, 0x4b, 0xe8, 0x3d, 0x23, 0x2c, 0xba, 0x3d, 0x1f, 0xa3, 0xa5, 0xbe,
  0xd9, 0x44, 0xa0, 0x3b, 0xea, 0xfc, 0x67, 0x3e, 0x1b, 0xda, 0x8c, 0xbe,
  0x05, 0x11, 0x4e, 0xbe, 0x03, 0x10, 0xd5, 0xbe, 0xda, 0xac, 0xc8, 0xbe,
  0x09, 0xee, 0x64, 0xbe, 0x34, 0x71, 0x78, 0xbe, 0x5d, 0xce, 0xb2, 0x3e,
  0x68, 0xf6, 0x2f, 0xbe, 0xab, 0x44, 0xa4, 0x3c, 0x7c, 0xf5, 0x66, 0xbd,
  0xf8, 0xf2, 0x90, 0xbc, 0xcb, 0xd2, 0x9b, 0x3d, 0x9c, 0x54, 0xd6, 0x3d,
  0xda, 0x1d, 0x74, 0x3d, 0x2a, 0x00, 0xef, 0xbe, 0xc4, 0x05, 0x79, 0xbd,
  0xdd, 0x6d, 0xdc, 0x3d, 0xbe, 0x1b, 0x6d, 0x3d, 0xca, 0x10, 0xfc, 0xbd,
  0x2b, 0x29, 0x72, 0xbe, 0xfd, 0xc9, 0x0b, 0x3f, 0x72, 0xb9, 0xef, 0x3e,
  0x93, 0xc6, 0xed, 0x3e, 0x44, 0x3b, 0xc6, 0x3e, 0xf5, 0xee, 0x94, 0xbe,
  0x21, 0x38, 0x1b, 0x3d, 0x2c, 0xe2, 0x12, 0x3e, 0x33, 0xac, 0xc8, 0xbe,
  0xe0, 0x7c, 0x92, 0xbc, 0xec, 0x08, 0x47, 0x3e, 0x32, 0x6a, 0x5a, 0xbe,
  0x3f, 0xf2, 0x17, 0x3d, 0x6b, 0x6f, 0x44, 0xbe, 0x4c, 0x09, 0xfa, 0x3e,
  0x02, 0xce, 0xd4, 0x3e, 0xcd, 0xdf, 0xbf, 0x3e, 0xc3, 0x84, 0x9e, 0x3d,
  0x7d, 0x62, 0x0f, 0x3f, 0x91, 0x50, 0x13, 0x3e, 0x4d, 0x0a, 0x90, 0xbd,
  0x4b, 0x16, 0x24, 0x3e, 0xf0, 0x69, 0x8a, 0xbe, 0x1b, 0x21, 0xb7, 0x3e,
  0xa4, 0xa8, 0xf8, 0x3d, 0x28, 0xc3, 0x1a, 0xbe, 0x8b, 0x3c, 0x9e, 0xbd,
  0x48, 0x08, 0xa8, 0x3e, 0x29, 0xa5, 0xbc, 0xbd, 0xab, 0x99, 0xe9, 0x3e,
  0x15, 0x0c, 0x94, 0xbe, 0x3c, 0xdd, 0x82, 0xbe, 0x15, 0x86, 0xa0, 0x3e,
  0xc6, 0xa9, 0xcb, 0xbe, 0xcb, 0xde, 0x22, 0xbe, 0xe3, 0x74, 0x32, 0x3d,
  0xea, 0x21, 0x6c, 0xbe, 0x37, 0x87, 0xa4, 0x3c, 0x78, 0xaf, 0x32, 0xbc,
  0xb4, 0xad, 0xef, 0x3e, 0x44, 0xfe, 0x9b, 0xbe, 0x26, 0x39, 0x27, 0x3f,
  0xbf, 0x7e, 0xbe, 0x3e, 0x85, 0xaa, 0xcb, 0x3d, 0xd4, 0xbd, 0x7d, 0xbe,
  0x35, 0xad, 0x0d, 0x3e, 0x23, 0x93, 0x80, 0xbe, 0x2d, 0x7d, 0x81, 0x3d,
  0xcc, 0xe8, 0x92, 0x3e, 0x28, 0x53, 0xc2, 0xbe, 0x54, 0x2e, 0x41, 0xbd,
  0xd2, 0xc5, 0xea, 0x3d, 0x6c, 0x75, 0xb4, 0xbd, 0xbf, 0xf2, 0x9e, 0x3e,
  0x64, 0x83, 0x0d, 0x3f, 0x8b, 0xaf, 0x61, 0xbe, 0xb1, 0x64, 0xd9, 0x3d,
  0xd0, 0xed, 0x90, 0xbd, 0x82, 0x39, 0x77, 0xbd, 0x42, 0x5d, 0x91, 0xbe,
  0x5f, 0x72, 0x29, 0x3e, 0x1c, 0x48, 0x21, 0xbf, 0x75, 0xb7, 0x5c, 0xbe,
  0x10, 0x0d, 0x02, 0xbe, 0x18, 0x34, 0x8f, 0xbe, 0x37, 0x8f, 0x1f, 0xbe,
  0x04, 0x7d, 0x4e, 0xbe, 0xda, 0x7d, 0x02, 0xbf, 0x79, 0xf2, 0x74, 0xbe,
  0x4b, 0x46, 0x82, 0xbe, 0x55, 0xd9, 0x46, 0xbe, 0xb7, 0xf6, 0xb8, 0x3e,
  0x89, 0x4d, 0xbf, 0xbe, 0xb2, 0x83, 0x71, 0xbe, 0xd6, 0xa3, 0x34, 0xbe,
  0x9b, 0x0a, 0xd7, 0x3d, 0xae, 0xb6, 0x08, 0xbe, 0x52, 0x7d, 0x2a, 0xbe,
  0x32, 0x3f, 0xd7, 0x3e, 0x74, 0x60, 0xaa, 0x3e, 0x6e, 0xff, 0xc7, 0x3e,
  0xdc, 0x57, 0xca, 0x3e, 0xe1, 0x93, 0x42, 0x3d, 0xa1, 0xf7, 0xf4, 0x3d,
  0x93, 0x6a, 0x02, 0x3c, 0xe6, 0x0b, 0x2c, 0xbe, 0x13, 0x61, 0x2d, 0x3e,
  0x34, 0x70, 0x28, 0x3e, 0x9c, 0xc2, 0x22, 0xbe, 0xbe, 0x2a, 0xcf, 0x3b,
  0x4b, 0x99, 0x90, 0x3e, 0x34, 0x4a, 0xaa, 0x3c, 0x95, 0xb0, 0x7d, 0x3e,
  0xb7, 0xdf, 0xff, 0xbe, 0x45, 0x68, 0xf4, 0xbe, 0x46, 0x7d, 0x9e, 0xbe,
  0xbe, 0x6d, 0x15, 0xbf, 0xd7, 0x7a, 0xa5, 0xbd, 0xb4, 0xcd, 0xd0, 0xbd,
  0x36, 0x7e, 0xd1, 0xbe, 0xe6, 0x80, 0x60, 0xbe, 0x5a, 0x6b, 0x38, 0x3e,
  0xd5, 0x80, 0x16, 0xbe, 0xa6, 0xa5, 0x3d, 0x3d, 0xd1, 0xca, 0x76, 0x3e,
  0xcc, 0xfb, 0x74, 0x3d, 0x15, 0x80, 0x60, 0xbd, 0x03, 0xb3, 0x08, 0x3e,
  0x55, 0x4d, 0x8f, 0xbc, 0xab, 0x06, 0x52, 0x3e, 0xb9, 0xdd, 0xba, 0xbe,
  0x0b, 0x24, 0xf2, 0x3d, 0x46, 0x68, 0x0e, 0x3e, 0xa9, 0xee, 0x16, 0x3e,
  0x1f, 0x71, 0x5b, 0x3d, 0x8f, 0x07, 0xb6, 0xbe, 0x4a, 0x15, 0x1e, 0x3d,
  0x96, 0xfb, 0x0b, 0xbe, 0xaa, 0x17, 0xdd, 0x3e, 0xa3, 0x73, 0x53, 0xbe,
  0x28, 0x0c, 0x70, 0xbb, 0x21, 0x3a, 0x4e, 0xbe, 0xce, 0x4a, 0x75, 0x3e,
  0x1d, 0x14, 0xce, 0x3e, 0xd5, 0x92, 0xe6, 0x3d, 0xfc, 0x84, 0x0c, 0xbc,
  0xc4, 0x38, 0x04, 0xbf, 0x0c, 0xdf, 0x9c, 0xbe, 0x19, 0x47, 0xab, 0xbe,
  0x56, 0x34, 0xce, 0xbd, 0x9f, 0x08, 0x6d, 0xbe, 0x6b, 0x88, 0x23, 0xbf,
  0x15, 0x45, 0x15, 0xbf, 0x35, 0x2f, 0x53, 0xbd, 0x2a, 0x98, 0x1b, 0xbe,
  0x1b, 0xe4, 0x5c, 0x3e, 0x59, 0x1c, 0x7d, 0x3e, 0x8b, 0x8b, 0x2d, 0x3f,
  0x11, 0x82, 0x11, 0x3e, 0x4f, 0x1c, 0x3f, 0xbe, 0xcb, 0x19, 0xc3, 0xbe,
  0xe0, 0x29, 0xf2, 0x3d, 0xa4, 0x6a, 0x52, 0xbe, 0x29, 0x5c, 0x53, 0x3e,
  0x1f, 0x15, 0x7e, 0x3e, 0x09, 0x36, 0x94, 0x3d, 0x1d, 0x3e, 0xbb, 0xbe,
  0xd4, 0x58, 0x84, 0xbe, 0x8f, 0xfc, 0x2a, 0xbe, 0x59, 0xaa, 0xeb, 0xbe,
  0xf5, 0x76, 0x69, 0x3e, 0x11, 0x7d, 0x95, 0xbb, 0x14, 0x83, 0xd5, 0xbd,
  0x24, 0x6f, 0x6a, 0x3e, 0x60, 0x65, 0x17, 0x3e, 0x3e, 0xce, 0xc7, 0xbd,
  0x90, 0x3b, 0x5e, 0xbe, 0xc7, 0x7e, 0xec, 0x3e, 0xc4, 0x27, 0xa7, 0xbe,
  0x47, 0xae, 0xa1, 0x3e, 0xbe, 0x1c, 0xf9, 0xbd, 0xc3, 0xd3, 0xd6, 0xbe,
  0x63, 0x7f, 0xc4, 0xbe, 0x96, 0xf5, 0xdf, 0x3d, 0x8f, 0x6c, 0xbe, 0xbe,
  0xfd, 0x53, 0x74, 0x3e, 0xe4, 0x8f, 0xb4, 0xbc, 0x10, 0x72, 0x3b, 0xbe,
  0x2d, 0xdf, 0x91, 0x3e, 0x1c, 0x0b, 0x32, 0x3e, 0x95, 0xb7, 0xda, 0x3d,
  0xee, 0xe7, 0x58, 0x3d, 0xf7, 0xff, 0x13, 0x3e, 0x14, 0xdb, 0x16, 0x3e,
  0x7d, 0x52, 0x0b, 0x3d, 0xef, 0xc7, 0xd1, 0xbe, 0x83, 0xa9, 0x06, 0x3e,
  0xe0, 0xc9, 0xba, 0xbd, 0x4b, 0xa5, 0xb3, 0xbe, 0xc7, 0x59, 0x7b, 0xbe,
  0x19, 0x20, 0xc8, 0xbe, 0xd4, 0xf9, 0x9c, 0x3d, 0x48, 0x4d, 0xab, 0x39,
  0xf5, 0xd3, 0xfe, 0x3d, 0x32, 0xae, 0x73, 0x3d, 0x27, 0x81, 0x09, 0xbe,
  0x07, 0xff, 0xaa, 0xbe, 0x03, 0x65, 0xfe, 0xbe, 0x5a, 0x5c, 0x02, 0x3d,
  0x68, 0x91, 0x49, 0xbe, 0x02, 0x36, 0x8a, 0x3e, 0xdd, 0x55, 0xa0, 0x3e,
  0x78, 0x5f, 0xbe, 0x3d, 0x59, 0xe2, 0xff, 0x3e, 0x83, 0xe0, 0xc7, 0x3e,
  0x6c, 0xb1, 0x0d, 0x3e, 0x79, 0x54, 0x4a, 0x3e, 0x8b, 0x8b, 0xd6, 0xbd,
  0x66, 0x43, 0xf2, 0xbe, 0x89, 0xe9, 0x52, 0xbe, 0x65, 0x06, 0x9c, 0xbe,
  0x65, 0xa6, 0x8e, 0x3e, 0x74, 0x5e, 0x35, 0xbe, 0x12, 0xbb, 0x65, 0xbe,
  0x2f, 0xc1, 0x2f, 0xbc, 0xf4, 0x54, 0x03, 0x3e, 0xeb, 0xe1, 0xfb, 0x3e,
  0xdd, 0x3b, 0x60, 0x3e, 0xec, 0x8b, 0xc1, 0x3e, 0xb0, 0xe8, 0x1d, 0x3e,
  0xde, 0x1e, 0x03, 0x3f, 0x42, 0x4b, 0xe4, 0x3e, 0xdc, 0xed, 0xc4, 0x3e,
  0x94, 0xcf, 0x17, 0x3d, 0x9d, 0xf4, 0x65, 0xbe, 0xa9, 0x04, 0x8d, 0x3e,
  0xa6, 0xc3, 0x39, 0x3e, 0x92, 0x94, 0x21, 0x3f, 0xd6, 0x97, 0x6d, 0xbe,
  0x71, 0xf8, 0xb7, 0x3e, 0x85, 0x25, 0x54, 0xbe, 0xa6, 0x4f, 0x51, 0x3e,
  0xb9, 0x05, 0xdb, 0xbe, 0x4b, 0xf2, 0xe6, 0xbd, 0x40, 0x6b, 0xbf, 0x3e,
  0x5c, 0x9b, 0xf5, 0xbe, 0x55, 0x31, 0x93, 0xbd, 0x2e, 0x54, 0x16, 0x3e,
  0x63, 0x16, 0x9b, 0xbe, 0x2e, 0xf6, 0xff, 0xff, 0x04, 0x00, 0x00, 0x00,
  0x00, 0x08, 0x00, 0x00, 0x7c, 0xc9, 0xe3, 0x3d, 0x8b, 0x23, 0x89, 0x3e,
  0x9a, 0x10, 0x75, 0xbc, 0x66, 0x6d, 0xbf, 0x3e, 0x92, 0x1c, 0x86, 0x3e,
  0x44, 0x1c, 0x9a, 0x3e, 0x82, 0xda, 0x7d, 0x3e, 0x3c, 0x37, 0x6f, 0x3e,
  0xe3, 0xb2, 0xb8, 0xbd, 0xc7, 0x64, 0x1a, 0xbe, 0x59, 0xf5, 0x22, 0xbe,
  0xf0, 0xae, 0x68, 0xbe, 0xe4, 0xce, 0x11, 0x3e, 0xf1, 0x64, 0x04, 0xbe,
  0x4f, 0xee, 0x48, 0x3e, 0x94, 0xdc, 0x80, 0x3d, 0x07, 0xbe, 0x0e, 0xbe,
  0x53, 0x73, 0xbe, 0xbe, 0x69, 0xb2, 0x17, 0x3e, 0x77, 0xfe, 0xe2, 0x3e,
  0x13, 0x29, 0xf7, 0x3e, 0x85, 0x66, 0x69, 0xbe, 0xc4, 0x0b, 0x8e, 0xbc,
  0x1a, 0xb0, 0x30, 0xbe, 0x98, 0x85, 0x97, 0x3e, 0x6e, 0xa7, 0x7b, 0x3e,
  0xa0, 0x19, 0xc2, 0x3e, 0x3e, 0x88, 0xd6, 0x3e, 0xd9, 0x29, 0x17, 0x3b,
  0xa0, 0x94, 0xcd, 0xbe, 0x3a, 0xf7, 0x7d, 0x3e, 0x72, 0x89, 0xd5, 0x3e,
  0x5f, 0x60, 0xdd, 0xbe, 0x1c, 0x10, 0xcf, 0x3e, 0xce, 0x34, 0xd3, 0x3c,
  0x21, 0x39, 0x0f, 0x3e, 0xc0, 0xfe, 0x84, 0x3e, 0x4d, 0xbe, 0xc9, 0x3e,
  0x08, 0x54, 0xee, 0xbd, 0x06, 0x7a, 0xa1, 0xbd, 0x04, 0x38, 0xd4, 0x3e,
  0x0c, 0x93, 0xc3, 0xbd, 0xae, 0x11, 0x92, 0xbe, 0x14, 0x63, 0x2b, 0xbd,
  0x78, 0xf8, 0xdc, 0xbc, 0x02, 0x32, 0x37, 0xbe, 0xbb, 0xbb, 0x6a, 0x3e,
  0x38, 0x44, 0x0b, 0x3e, 0xde, 0xc7, 0x9f, 0xbe, 0x2d, 0xec, 0x83, 0xbd,
  0x30, 0xef, 0xaa, 0xbe, 0x98, 0x8d, 0x9f, 0x3e, 0x6f, 0x05, 0x22, 0x3f,
  0x7f, 0xf0, 0x97, 0xbe, 0x5a, 0xf1, 0x31, 0x3e, 0xbd, 0xfe, 0x94, 0x3c,
  0x5a, 0x87, 0x80, 0xbe, 0x77, 0xae, 0x07, 0x3e, 0x08, 0x93, 0x2b, 0x3f,
  0x48, 0xb4, 0x4f, 0x3e, 0xe9, 0x8e, 0x86, 0x3e, 0x48, 0x76, 0x68, 0xbe,
  0x66, 0xbf, 0xa5, 0x3e, 0x43, 0x2e, 0x02, 0x3f, 0x17, 0xa2, 0x40, 0x3e,
  0xe5, 0xbc, 0xfd, 0xbd, 0xfb, 0xc8, 0x82, 0xbe, 0xdc, 0x97, 0xc1, 0x3b,
  0x0e, 0xfb, 0x88, 0xbe, 0x11, 0x25, 0xd5, 0xbe, 0xcc, 0x89, 0x9b, 0x3e,
  0x31, 0x46, 0xb1, 0x3e, 0x58, 0x9b, 0xd2, 0xbe, 0x99, 0x7b, 0xc5, 0x3d,
  0x50, 0xfb, 0x80, 0x3c, 0x16, 0x30, 0x7c, 0x3d, 0xf7, 0xaf, 0x84, 0x3e,
  0x49, 0xf2, 0xd0, 0x3e, 0x70, 0x40, 0x53, 0x3e, 0x88, 0xbd, 0x20, 0x3e,
  0x36, 0x69, 0x16, 0xbe, 0x8d, 0xe2, 0x0d, 0x3f, 0xd9, 0xfa, 0xeb, 0x3e,
  0xc9, 0x97, 0x6b, 0xbd, 0x28, 0xbb, 0x2d, 0xbe, 0x24, 0xc2, 0xae, 0x3e,
  0xd1, 0x87, 0xab, 0x3e, 0x6f, 0x4c, 0x8e, 0x3e, 0xd2, 0xb8, 0x2a, 0xbd,
  0x60, 0xcb, 0xae, 0x3e, 0xd7, 0xf0, 0x48, 0xbe, 0x30, 0x0b, 0x2b, 0xbe,
  0xd2, 0xed, 0x12, 0xbe, 0xe1, 0xdc, 0x2c, 0x3d, 0x12, 0x54, 0x0b, 0xbd,
  0x4c, 0x76, 0xf8, 0xbe, 0x27, 0x90, 0x0b, 0x3f, 0x75, 0xcd, 0xb2, 0xbe,
  0xc7, 0x55, 0xaf, 0xbd, 0x1a, 0x43, 0xe2, 0xbd, 0x01, 0x00, 0x2a, 0x3d,
  0x02, 0x69, 0x8e, 0x3d, 0xdd, 0x7f, 0xd5, 0x3e, 0xbf, 0x65, 0xbe, 0x3e,
  0x45, 0xeb, 0xa4, 0xbe, 0xca, 0xbe, 0x86, 0x3e, 0xf6, 0x4d, 0x62, 0xbe,
  0x6a, 0x80, 0x91, 0xbc, 0xc0, 0xc5, 0xc0, 0x3d, 0xf0, 0xfa, 0xe5, 0x3e,
  0xe0, 0xb3, 0xad, 0xbc, 0x1a, 0xdc, 0x92, 0x3e, 0x43, 0xac, 0x9d, 0x3d,
  0x19, 0xdd, 0x13, 0x3f, 0x57, 0xf5, 0xfe, 0x3e, 0xe5, 0xca, 0x54, 0xbe,
  0xfc, 0x3d, 0xc0, 0xbe, 0x49, 0xde, 0xb8, 0xbe, 0x0e, 0x62, 0xdf, 0x3e,
  0x7a, 0xfd, 0xb3, 0xbe, 0xab, 0x3c, 0xef, 0x3e, 0x45, 0x23, 0xd0, 0xbe,
  0x64, 0x3c, 0xdd, 0xbe, 0xea, 0xe9, 0x36, 0xbe, 0x96, 0xf7, 0x8b, 0xbd,
  0x9f, 0x43, 0x66, 0x3e, 0x76, 0x77, 0xd2, 0x3e, 0xe4, 0x50, 0x44, 0xbe,
  0x16, 0x8e, 0x13, 0xbe, 0x8c, 0x29, 0x23, 0x3e, 0xfd, 0x80, 0xf4, 0x3e,
  0x28, 0x2c, 0x0d, 0x3e, 0x97, 0x8b, 0x91, 0xbd, 0xf5, 0xbd, 0xff, 0x3e,
  0x7e, 0xfc, 0x3e, 0x3e, 0x67, 0xae, 0x9f, 0x3e, 0xcf, 0x76, 0xb8, 0x3e,
  0x3e, 0x3b, 0x07, 0x3f, 0x7a, 0xfd, 0x86, 0xbb, 0xb3, 0x5a, 0x86, 0xbd,
  0xd4, 0x7e, 0xef, 0xbe, 0x61, 0xa4, 0xb3, 0xbe, 0xe1, 0x59, 0xeb, 0x3e,
  0x29, 0x64, 0xa2, 0x3e, 0xdf, 0x80, 0xa3, 0x3e, 0xb3, 0x33, 0x04, 0xbe,
  0x41, 0xf2, 0x1d, 0xbe, 0xf3, 0x0e, 0xcc, 0x3e, 0x7d, 0x1d, 0xeb, 0x3e,
  0x33, 0x8f, 0x02, 0x3f, 0xf5, 0xf8, 0xb0, 0x3d, 0xda, 0x3d, 0x0c, 0x3f,
  0xdd, 0x8d, 0x51, 0x3e, 0x78, 0xc8, 0xa0, 0x3e, 0xf7, 0x6c, 0x13, 0x3f,
  0x8a, 0x4c, 0xa3, 0xbd, 0xda, 0xa9, 0xfb, 0x3c, 0xd2, 0x84, 0x91, 0xbe,
  0x5e, 0xa4, 0x3d, 0xbe, 0xc7, 0x04, 0xbd, 0x3e, 0x2c, 0x06, 0x78, 0xbe,
  0x5d, 0x71, 0x30, 0x3f, 0x73, 0x56, 0x90, 0x3e, 0x5b, 0x34, 0x17, 0x3e,
  0x39, 0x00, 0xd4, 0x3d, 0x13, 0x59, 0x09, 0x3d, 0xb7, 0x43, 0x78, 0x3e,
  0x81, 0x4a, 0x03, 0xbe, 0xe6, 0x92, 0xa5, 0x3e, 0x26, 0x14, 0x25, 0xbe,
  0x1f, 0x5c, 0xd0, 0x3d, 0x6f, 0x1b, 0x04, 0xbe, 0xdb, 0x40, 0x84, 0xbe,
  0x85, 0xd6, 0xb5, 0xbe, 0x42, 0x03, 0x63, 0x3e, 0x03, 0x6e, 0xd3, 0xbd,
  0x58, 0x3d, 0x7d, 0xbe, 0x68, 0xe2, 0xb6, 0x3d, 0xec, 0x66, 0xa4, 0xbe,
  0x27, 0x7b, 0x88, 0x3c, 0xc4, 0x54, 0xd3, 0x3e, 0x14, 0xb3, 0x0e, 0xbe,
  0xfc, 0xdc, 0xe1, 0xbd, 0xd4, 0x76, 0x1d, 0x3d, 0x35, 0x81, 0xb6, 0x3d,
  0x24, 0xba, 0xc3, 0x3d, 0xaf, 0x31, 0x1f, 0x3f, 0x73, 0x66, 0xb1, 0x3e,
  0x87, 0xcb, 0xab, 0x3d, 0xf3, 0xd1, 0x89, 0x3d, 0xa3, 0x2a, 0x9d, 0x3d,
  0xce, 0xda, 0x26, 0x3f, 0x92, 0xf2, 0x1e, 0x3e, 0x61, 0xb9, 0xe4, 0xbe,
  0x11, 0x02, 0x24, 0xbe, 0x49, 0xcd, 0xc5, 0xbe, 0x56, 0x5c, 0xff, 0xbb,
  0x44, 0x43, 0x72, 0xbe, 0xdc, 0x78, 0x59, 0x3c, 0x8c, 0xf9, 0xec, 0x3c,
  0x4c, 0x2d, 0x04, 0xbe, 0xc8, 0x6b, 0x0b, 0x3c, 0xad, 0xa3, 0x8a, 0x3d,
  0xaf, 0x2c, 0x75, 0x3e, 0xac, 0x6a, 0x76, 0x3e, 0x8b, 0xb8, 0x03, 0x3f,
  0x64, 0x4e, 0x4f, 0x3e, 0xab, 0x00, 0x04, 0xbe, 0xa3, 0x43, 0xc9, 0x3e,
  0x25, 0xe6, 0x8f, 0x3e, 0x74, 0xd8, 0xf0, 0x3d, 0xff, 0xfe, 0x18, 0x3e,
  0x4c, 0xec, 0xad, 0x3c, 0x8a, 0xf1, 0x67, 0xbd, 0xb0, 0xb3, 0xe4, 0x3e,
  0x37, 0x16, 0x67, 0xbd, 0xe3, 0x96, 0x15, 0xbe, 0x12, 0x06, 0xc2, 0xbe,
  0x20, 0x19, 0x30, 0xbd, 0x11, 0xab, 0x9c, 0xbe, 0x93, 0xc2, 0x12, 0x3e,
  0x27, 0xe0, 0xbe, 0xbd, 0x7f, 0x08, 0xb3, 0x3e, 0x30, 0x39, 0xcc, 0xbe,
  0xbd, 0x5b, 0x44, 0xbe, 0x76, 0x35, 0xce, 0xbd, 0x35, 0x98, 0x7a, 0xbd,
  0x3a, 0x5c, 0xdf, 0xbe, 0x7f, 0x72, 0x12, 0x3d, 0x93, 0x89, 0x24, 0x3e,
  0x4b, 0xdf, 0x2f, 0x3d, 0x0b, 0x6e, 0xae, 0x3c, 0xc7, 0xc3, 0x31, 0xbe,
  0xd5, 0x2b, 0x12, 0xbe, 0x65, 0x37, 0x3d, 0x3e, 0x2c, 0x13, 0x2a, 0xbe,
  0xd2, 0x90, 0x07, 0xbf, 0x73, 0x58, 0xed, 0x3e, 0xf1, 0xbb, 0x98, 0x3b,
  0xf0, 0x38, 0xdc, 0xbe, 0x81, 0x34, 0x88, 0x3e, 0x05, 0xca, 0xac, 0xbb,
  0x24, 0xa8, 0xa8, 0x3a, 0x5f, 0x58, 0x2c, 0x3e, 0x5a, 0x33, 0x98, 0xbd,
  0x37, 0x55, 0x2c, 0xbe, 0x33, 0x73, 0xd8, 0xbe, 0x8a, 0xe1, 0x6f, 0x3d,
  0x26, 0xc2, 0xc1, 0xbe, 0x72, 0x68, 0x95, 0xbe, 0x81, 0x47, 0x34, 0x3e,
  0xc2, 0x62, 0x9b, 0xbe, 0x26, 0x66, 0xfa, 0xbe, 0xae, 0x4c, 0x7d, 0xbd,
  0xec, 0x1d, 0xdd, 0x3d, 0x0e, 0x7d, 0xbf, 0x3a, 0x72, 0x10, 0x97, 0x3e,
  0xa0, 0x69, 0x36, 0x3c, 0x03, 0xe4, 0x04, 0xbf, 0x79, 0x61, 0xde, 0x3d,
  0x7d, 0xaa, 0x33, 0x3e, 0x30, 0xc8, 0x3c, 0xbd, 0x94, 0xca, 0xb7, 0x3e,
  0x99, 0xc0, 0x41, 0x3d, 0xfd, 0x0a, 0x83, 0xbe, 0x27, 0x63, 0x13, 0xbc,
  0x44, 0x81, 0xae, 0xbd, 0x5d, 0xc7, 0x8d, 0xbe, 0xaf, 0xc5, 0xe9, 0x3d,
  0x7d, 0xc3, 0x40, 0x3e, 0xdc, 0xc8, 0x3e, 0xbe, 0x23, 0x84, 0x99, 0xbe,
  0xe1, 0x7e, 0x43, 0x3e, 0x72, 0x7b, 0x07, 0x3f, 0x6a, 0x2d, 0xa8, 0xbe,
  0x9c, 0x2c, 0x49, 0xbd, 0x73, 0x3b, 0x88, 0xbc, 0xf1, 0x82, 0x4b, 0xbc,
  0x89, 0x77, 0xc4, 0x3d, 0x83, 0x55, 0x08, 0x3e, 0x9f, 0x90, 0x23, 0xbe,
  0xa3, 0x86, 0xf4, 0xbe, 0x0a, 0x81, 0x86, 0xbe, 0xaf, 0x1d, 0x54, 0xbe,
  0x55, 0x8f, 0xb8, 0xbe, 0xeb, 0xe5, 0xb7, 0x3e, 0xff, 0x1f, 0xa9, 0x3d,
  0x6c, 0x44, 0x02, 0xbf, 0x4b, 0x7f, 0x74, 0xbe, 0x9e, 0x8e, 0x94, 0x3d,
  0x57, 0xbd, 0xb4, 0xbd, 0xb2, 0xc8, 0xad, 0x3d, 0x7f, 0x9b, 0x1c, 0x3d,
  0x51, 0xe8, 0x80, 0xbe, 0xb4, 0xa3, 0x38, 0xbe, 0xa3, 0x7c, 0x8f, 0xbe,
  0xef, 0xba, 0xdc, 0xbe, 0x44, 0x94, 0x12, 0x3f, 0x35, 0x68, 0x78, 0xbc,
  0x56, 0xab, 0xde, 0x3e, 0x14, 0x85, 0x9c, 0xbe, 0x9f, 0x6c, 0xc8, 0x3e,
  0x08, 0x91, 0x26, 0x3e, 0x48, 0xdd, 0x79, 0x3e, 0xe8, 0xbd, 0x03, 0x3f,
  0x12, 0xcf, 0x91, 0xbe, 0xbb, 0x84, 0xd3, 0xbe, 0x4c, 0xd4, 0x98, 0xbe,
  0x1c, 0x99, 0x0c, 0xbf, 0x10, 0xaa, 0xa3, 0x3e, 0xca, 0xf4, 0x14, 0xbf,
  0x68, 0xfc, 0xee, 0x3e, 0x18, 0x1c, 0xb0, 0xbe, 0x29, 0x8f, 0x21, 0x3e,
  0x09, 0xb8, 0xbc, 0xbe, 0x31, 0xc8, 0x31, 0xbd, 0x02, 0x1e, 0x8e, 0x3e,
  0x3a, 0x78, 0x5a, 0xbe, 0xce, 0xcb, 0x06, 0x3d, 0x12, 0x93, 0x5a, 0xbe,
  0x4e, 0x49, 0x20, 0x3e, 0x03, 0xbc, 0xa3, 0xbe, 0xc7, 0xd7, 0x96, 0xbd,
  0x76, 0x7c, 0x79, 0xbe, 0xfc, 0xa0, 0x23, 0xbe, 0xe9, 0x3d, 0x73, 0x3d,
  0x8e, 0x0e, 0x1a, 0xbe, 0x48, 0x9a, 0xc9, 0x3e, 0x71, 0xa4, 0x50, 0x3d,
  0x87, 0xc5, 0x10, 0x3f, 0xae, 0x5b, 0x73, 0xbd, 0xad, 0x1c, 0x00, 0x3d,
  0xe2, 0xbe, 0x20, 0x3e, 0x80, 0xbd, 0x5e, 0xbe, 0x93, 0xf4, 0x34, 0x3e,
  0x07, 0xbe, 0x3a, 0x3e, 0x95, 0x1d, 0xb3, 0x3e, 0xa2, 0x02, 0x94, 0x3e,
  0xf0, 0xad, 0x95, 0xbe, 0x00, 0xd4, 0xdc, 0x3d, 0x63, 0x8e, 0xd5, 0xbe,
  0x8f, 0x59, 0x89, 0xbd, 0x5f, 0xe3, 0xa5, 0x3d, 0x39, 0x61, 0x3e, 0x3d,
  0xfb, 0xc7, 0xea, 0xbe, 0x8c, 0xb3, 0xd1, 0x3d, 0x4c, 0xdc, 0xa9, 0xbd,
  0x6b, 0xa4, 0x95, 0xbe, 0xf9, 0xf4, 0x27, 0x3d, 0xbf, 0x0f, 0xdc, 0xbe,
  0x7d, 0x2e, 0x8f, 0xbb, 0x1c, 0x53, 0x8b, 0xbe, 0x78, 0x16, 0x01, 0x3e,
  0x27, 0x07, 0x89, 0x3e, 0x2e, 0xa6, 0x93, 0xbd, 0xfd, 0x04, 0xb2, 0x3e,
  0xf1, 0x15, 0x13, 0x3e, 0x12, 0x82, 0xc9, 0x3e, 0xd8, 0x14, 0x17, 0xbe,
  0x1c, 0xcb, 0x75, 0x3e, 0x24, 0x89, 0xc8, 0x3e, 0xb1, 0x55, 0x46, 0xbe,
  0xb0, 0xe6, 0x90, 0xbe, 0xd0, 0xaa, 0xb3, 0x3e, 0x8e, 0xf5, 0x4c, 0xbe,
  0x35, 0x97, 0xfb, 0x3d, 0xa3, 0x1d, 0xeb, 0x3e, 0xae, 0xf5, 0x2e, 0xbe,
  0x0a, 0xe5, 0x33, 0x3e, 0x9b, 0x8c, 0xeb, 0xbd, 0x73, 0xb7, 0x10, 0xbe,
  0x78, 0x85, 0xf1, 0x3d, 0x40, 0x91, 0x0a, 0x3f, 0x66, 0x76, 0x9d, 0xbd,
  0x01, 0xe0, 0xc9, 0xbd, 0xfa, 0x43, 0x21, 0x3e, 0x54, 0x60, 0x91, 0x3e,
  0x3d, 0x55, 0x36, 0x3e, 0x61, 0x02, 0x6f, 0x3e, 0xbb, 0xf9, 0x73, 0x3e,
  0xef, 0x8a, 0xd0, 0xbe, 0x84, 0x0d, 0xdd, 0xbc, 0x3f, 0x7c, 0xd5, 0xbd,
  0xd8, 0xb8, 0x93, 0x3b, 0x30, 0x2c, 0x0d, 0x3f, 0xb2, 0xba, 0x21, 0x3d,
  0x26, 0x94, 0x74, 0xbe, 0x5b, 0x0d, 0xc0, 0x3d, 0x7e, 0x86, 0x30, 0xbe,
  0x32, 0x6f, 0x99, 0xbe, 0x2a, 0x52, 0xb0, 0x3d, 0xf2, 0x99, 0xd7, 0x3e,
  0xcb, 0x0b, 0xce, 0xbe, 0x4e, 0xad, 0x4c, 0x3e, 0x34, 0xf4, 0xd4, 0x3c,
  0xd6, 0xe8, 0x52, 0x3e, 0x87, 0x38, 0x94, 0x3d, 0xd7, 0xee, 0xe2, 0x3e,
  0xed, 0xef, 0x46, 0xbe, 0x19, 0x60, 0x40, 0x3d, 0xa4, 0xc3, 0xf5, 0x3e,
  0x4e, 0x4a, 0x07, 0x3f, 0x86, 0xfd, 0x8c, 0xbe, 0x0f, 0x80, 0xdf, 0xbd,
  0xa7, 0x09, 0xf1, 0xbd, 0x8a, 0x97, 0x09, 0x3f, 0x67, 0xd9, 0xab, 0xbc,
  0xb9, 0x9f, 0x8a, 0x3e, 0x3f, 0x0e, 0x38, 0xbe, 0x84, 0xa2, 0xea, 0x3e,
  0x0a, 0x61, 0xfe, 0xbe, 0x9b, 0xee, 0xd3, 0xbe, 0x3f, 0x45, 0x08, 0xbe,
  0x34, 0xf2, 0xa6, 0x3e, 0x60, 0x61, 0xa2, 0xbd, 0x87, 0x23, 0x72, 0xbe,
  0xb2, 0xac, 0x27, 0xbe, 0x7d, 0xea, 0xd9, 0x3d, 0x78, 0xbc, 0xa1, 0xbe,
  0x67, 0x7a, 0xaf, 0xbe, 0xee, 0x89, 0xab, 0x3d, 0x8f, 0xa3, 0x62, 0xbe,
  0x5a, 0x20, 0xd4, 0x3d, 0x65, 0x8c, 0xc6, 0x3e, 0xda, 0x4c, 0x92, 0x3e,
  0x4a, 0x86, 0x95, 0x3d, 0xee, 0x3a, 0x99, 0xbb, 0xf8, 0xce, 0x4b, 0xbe,
  0xb9, 0x81, 0x2b, 0x3d, 0x6e, 0x64, 0x94, 0xbe, 0x2a, 0xd4, 0x06, 0xbe,
  0xb5, 0xcf, 0x45, 0xbe, 0xf7, 0x7b, 0xf8, 0x3d, 0x95, 0x7c, 0xd5, 0xbc,
  0x53, 0x26, 0x68, 0xbe, 0xb0, 0xa6, 0x4f, 0x3e, 0xd5, 0xb1, 0x49, 0xbe,
  0x9a, 0xc4, 0xc9, 0xbd, 0xc8, 0x91, 0xe8, 0xbd, 0x70, 0x37, 0x50, 0xbd,
  0x00, 0x0c, 0x3d, 0xbd, 0xe2, 0xf9, 0x86, 0xbe, 0x36, 0xb2, 0x50, 0x3d,
  0x7a, 0x84, 0x02, 0x3e, 0x85, 0xd3, 0xa1, 0xbe, 0x2e, 0xfa, 0x1c, 0xbe,
  0x63, 0xbc, 0x65, 0xbe, 0xc2, 0x37, 0x08, 0xbe, 0xf8, 0xb9, 0xbf, 0xbe,
  0xec, 0xad, 0x09, 0x3f, 0x9e, 0x16, 0x36, 0xbd, 0x7a, 0xa3, 0x0c, 0x3f,
  0x3b, 0x38, 0x05, 0x3f, 0xba, 0x7f, 0x53, 0x3e, 0x52, 0xce, 0xcd, 0x3e,
  0x18, 0x5c, 0x8f, 0x3e, 0x6a, 0x6e, 0xe0, 0x3e, 0x88, 0x7d, 0xca, 0xbe,
  0xad, 0x3b, 0xa7, 0x3d, 0x66, 0xd7, 0xc4, 0xbd, 0x97, 0xe9, 0x27, 0xbe,
  0xec, 0x67, 0x91, 0xbe, 0x3f, 0xcf, 0x02, 0x3f, 0xda, 0x8b, 0xa7, 0x3e,
  0xfa, 0xd8, 0xb7, 0xbe, 0x42, 0xd9, 0x8a, 0xbe, 0x62, 0x11, 0x47, 0xbe,
  0x8a, 0xd0, 0xb4, 0x3e, 0xd1, 0x1f, 0x15, 0x3f, 0xef, 0xd0, 0x85, 0xbe,
  0xeb, 0x92, 0x98, 0x3e, 0xba, 0x71, 0x6a, 0xbd, 0x05, 0xca, 0xc4, 0x3d,
  0x17, 0x11, 0xdd, 0xbc, 0x72, 0x09, 0x1a, 0x3f, 0xb1, 0x06, 0x27, 0xbd,
  0x67, 0xc7, 0x28, 0x3e, 0xe4, 0x51, 0x9f, 0xbe, 0x9b, 0x0b, 0x8d, 0x3e,
  0x0c, 0xea, 0x3c, 0x3f, 0x1b, 0xb1, 0xd2, 0xbe, 0xdf, 0x5c, 0x63, 0xbe,
  0x67, 0x58, 0x8b, 0x3d, 0x6a, 0xc2, 0x0e, 0x39, 0x33, 0x18, 0xb0, 0xbd,
  0x74, 0x2a, 0x98, 0xbd, 0x8b, 0xaf, 0xb9, 0xbc, 0xe1, 0x1c, 0x81, 0xbe,
  0x62, 0x4c, 0x2e, 0x3c, 0x75, 0xce, 0xe0, 0x3e, 0xdb, 0x33, 0x9b, 0xbe,
  0xe6, 0x1e, 0xa8, 0x3d, 0x0d, 0xa1, 0x83, 0xbe, 0x25, 0x29, 0xe3, 0xbd,
  0x66, 0x2b, 0x6b, 0xbd, 0x72, 0x39, 0x96, 0x3e, 0x29, 0x6d, 0xc7, 0x3c,
  0x2d, 0x97, 0x8f, 0xbe, 0x90, 0xfa, 0x86, 0xbe, 0xdb, 0x99, 0x7b, 0x3c,
  0xfe, 0x78, 0xac, 0xbe, 0x86, 0xb3, 0xd5, 0x3d, 0x25, 0xe2, 0x85, 0xbe,
  0xdc, 0x96, 0xee, 0x3e, 0x4c, 0x39, 0x08, 0xbc, 0x24, 0x48, 0x13, 0x3f,
  0xd3, 0x05, 0xfb, 0xbe, 0x49, 0x99, 0xe9, 0xbe, 0x6c, 0x27, 0xe8, 0x3d,
  0x9b, 0xc4, 0xbc, 0xbe, 0x41, 0xfa, 0xcf, 0xbd, 0x55, 0x97, 0xb3, 0xbe,
  0x3a, 0xfe, 0xff, 0xff, 0x04, 0x00, 0x00, 0x00, 0xc0, 0x00, 0x00, 0x00,
  0xec, 0x70, 0x7c, 0xbe, 0x56, 0xf7, 0x6a, 0xbe, 0x8a, 0xed, 0xf6, 0x3e,
  0x75, 0x58, 0x3d, 0x3f, 0x67, 0xcf, 0xc9, 0xbe, 0x24, 0x73, 0xc9, 0xbe,
  0xb2, 0xf6, 0x46, 0x3f, 0x9e, 0x04, 0xa2, 0x3e, 0x94, 0xdf, 0x82, 0x3e,
  0x28, 0xb1, 0x26, 0xbf, 0xf1, 0x65, 0xc3, 0x3e, 0x3d, 0x68, 0xa4, 0xbe,
  0xff, 0x20, 0xb0, 0x3e, 0x2a, 0xe2, 0xa4, 0x3e, 0x51, 0x0d, 0x15, 0xbf,
  0xbe, 0x69, 0x46, 0xbf, 0x05, 0xbc, 0x41, 0xbf, 0xac, 0x91, 0xcc, 0xbd,
  0xe7, 0xc0, 0x69, 0x3e, 0x98, 0xf6, 0x55, 0xbf, 0x67, 0x9d, 0x73, 0x3e,
  0x03, 0xaa, 0x7e, 0xbe, 0x1a, 0xaa, 0x6e, 0x3d, 0x49, 0x97, 0xa7, 0xbe,
  0xc5, 0x73, 0xc1, 0xbe, 0x89, 0x05, 0x5b, 0x3e, 0xd6, 0xb2, 0xa4, 0x3e,
  0xe3, 0x47, 0x83, 0xbe, 0x37, 0xab, 0xc4, 0x3e, 0x74, 0xc4, 0xb6, 0xbe,
  0x3e, 0x64, 0x6c, 0xbf, 0x95, 0x35, 0x1c, 0x3f, 0x0f, 0x22, 0x10, 0x3f,
  0xc8, 0x0e, 0x3f, 0x3f, 0x27, 0x4c, 0x00, 0xbf, 0xc0, 0x75, 0x8a, 0xbe,
  0xe4, 0xe7, 0x42, 0x3e, 0x57, 0x4b, 0x42, 0x3f, 0x05, 0x73, 0x24, 0xbf,
  0x81, 0x68, 0x1b, 0xbe, 0x45, 0x8a, 0x0d, 0xbe, 0x62, 0x16, 0x44, 0xbf,
  0xb0, 0x27, 0xf1, 0xbe, 0x2c, 0x4e, 0x3a, 0x3f, 0xbf, 0x0c, 0x2a, 0xbf,
  0x81, 0xdb, 0x03, 0xbe, 0xb0, 0x9b, 0x9e, 0x3e, 0xb4, 0xe0, 0x81, 0xbe,
  0x06, 0xff, 0xff, 0xff, 0x04, 0x00, 0x00, 0x00, 0x0c, 0x00, 0x00, 0x00,
  0x4e, 0x55, 0x30, 0xbe, 0xdf, 0x1c, 0x1e, 0xbd, 0x7e, 0xfc, 0x11, 0x3e,
  0x1e, 0xff, 0xff, 0xff, 0x04, 0x00, 0x00, 0x00, 0x40, 0x00, 0x00, 0x00,
  0xb8, 0x20, 0x82, 0x3e, 0x1f, 0x8d, 0xf0, 0x3e, 0x5a, 0x5e, 0xa0, 0xbd,
  0x9a, 0xdb, 0x89, 0xbd, 0xde, 0xda, 0x9b, 0x3e, 0xd2, 0x59, 0x9b, 0x3e,
  0x87, 0x75, 0x14, 0xbe, 0x26, 0x8a, 0xc7, 0xbb, 0xb1, 0x53, 0x08, 0xbd,
  0xae, 0xb4, 0x0a, 0x3e, 0x10, 0x8c, 0x10, 0x3d, 0xcf, 0x38, 0xe7, 0x3d,
  0xfb, 0x83, 0x05, 0xbc, 0xd1, 0x59, 0x68, 0xbc, 0x54, 0xee, 0x8d, 0x3e,
  0xbb, 0x4a, 0x46, 0x3e, 0x0c, 0xfa, 0xff, 0xff, 0x10, 0xfa, 0xff, 0xff,
  0x0f, 0x00, 0x00, 0x00, 0x4d, 0x4c, 0x49, 0x52, 0x20, 0x43, 0x6f, 0x6e,
  0x76, 0x65, 0x72, 0x74, 0x65, 0x64, 0x2e, 0x00, 0x01, 0x00, 0x00, 0x00,
  0x14, 0x00, 0x00, 0x00, 0x00, 0x00, 0x0e, 0x00, 0x18, 0x00, 0x14, 0x00,
  0x10, 0x00, 0x0c, 0x00, 0x08, 0x00, 0x04, 0x00, 0x0e, 0x00, 0x00, 0x00,
  0x14, 0x00, 0x00, 0x00, 0x1c, 0x00, 0x00, 0x00, 0x34, 0x01, 0x00, 0x00,
  0x38, 0x01, 0x00, 0x00, 0x3c, 0x01, 0x00, 0x00, 0x04, 0x00, 0x00, 0x00,
  0x6d, 0x61, 0x69, 0x6e, 0x00, 0x00, 0x00, 0x00, 0x04, 0x00, 0x00, 0x00,
  0xdc, 0x00, 0x00, 0x00, 0x94, 0x00, 0x00, 0x00, 0x50, 0x00, 0x00, 0x00,
  0x14, 0x00, 0x00, 0x00, 0x00, 0x00, 0x0e, 0x00, 0x1a, 0x00, 0x14, 0x00,
  0x10, 0x00, 0x0c, 0x00, 0x0b, 0x00, 0x04, 0x00, 0x0e, 0x00, 0x00, 0x00,
  0x1c, 0x00, 0x00, 0x00, 0x00, 0x00, 0x00, 0x09, 0x1c, 0x00, 0x00, 0x00,
  0x20, 0x00, 0x00, 0x00, 0x01, 0x00, 0x00, 0x00, 0x00, 0x00, 0x06, 0x00,
  0x08, 0x00, 0x04, 0x00, 0x06, 0x00, 0x00, 0x00, 0x00, 0x00, 0x80, 0x3f,
  0x01, 0x00, 0x00, 0x00, 0x0a, 0x00, 0x00, 0x00, 0x01, 0x00, 0x00, 0x00,
  0x09, 0x00, 0x00, 0x00, 0xce, 0xff, 0xff, 0xff, 0x10, 0x00, 0x00, 0x00,
  0x00, 0x00, 0x00, 0x08, 0x0c, 0x00, 0x00, 0x00, 0x10, 0x00, 0x00, 0x00,
  0xd4, 0xfa, 0xff, 0xff, 0x01, 0x00, 0x00, 0x00, 0x09, 0x00, 0x00, 0x00,
  0x03, 0x00, 0x00, 0x00, 0x08, 0x00, 0x00, 0x00, 0x03, 0x00, 0x00, 0x00,
  0x02, 0x00, 0x00, 0x00, 0x00, 0x00, 0x0e, 0x00, 0x14, 0x00, 0x00, 0x00,
  0x10, 0x00, 0x0c, 0x00, 0x0b, 0x00, 0x04, 0x00, 0x0e, 0x00, 0x00, 0x00,
  0x10, 0x00, 0x00, 0x00, 0x00, 0x00, 0x00, 0x08, 0x10, 0x00, 0x00, 0x00,
  0x14, 0x00, 0x00, 0x00, 0xba, 0xff, 0xff, 0xff, 0x00, 0x00, 0x00, 0x01,
  0x01, 0x00, 0x00, 0x00, 0x08, 0x00, 0x00, 0x00, 0x03, 0x00, 0x00, 0x00,
  0x07, 0x00, 0x00, 0x00, 0x04, 0x00, 0x00, 0x00, 0x01, 0x00, 0x00, 0x00,
  0x00, 0x00, 0x0e, 0x00, 0x16, 0x00, 0x00, 0x00, 0x10, 0x00, 0x0c, 0x00,
  0x0b, 0x00, 0x04, 0x00, 0x0e, 0x00, 0x00, 0x00, 0x18, 0x00, 0x00, 0x00,
  0x00, 0x00, 0x00, 0x08, 0x18, 0x00, 0x00, 0x00, 0x1c, 0x00, 0x00, 0x00,
  0x00, 0x00, 0x06, 0x00, 0x08, 0x00, 0x07, 0x00, 0x06, 0x00, 0x00, 0x00,
  0x00, 0x00, 0x00, 0x01, 0x01, 0x00, 0x00, 0x00, 0x07, 0x00, 0x00, 0x00,
  0x03, 0x00, 0x00, 0x00, 0x00, 0x00, 0x00, 0x00, 0x05, 0x00, 0x00, 0x00,
  0x06, 0x00, 0x00, 0x00, 0x01, 0x00, 0x00, 0x00, 0x0a, 0x00, 0x00, 0x00,
  0x01, 0x00, 0x00, 0x00, 0x00, 0x00, 0x00, 0x00, 0x0b, 0x00, 0x00, 0x00,
  0x44, 0x04, 0x00, 0x00, 0xc4, 0x03, 0x00, 0x00, 0x60, 0x03, 0x00, 0x00,
  0x10, 0x03, 0x00, 0x00, 0xc0, 0x02, 0x00, 0x00, 0x74, 0x02, 0x00, 0x00,
  0x10, 0x02, 0x00, 0x00, 0x7c, 0x01, 0x00, 0x00, 0xe0, 0x00, 0x00, 0x00,
  0x60, 0x00, 0x00, 0x00, 0x04, 0x00, 0x00, 0x00, 0xfe, 0xfb, 0xff, 0xff,
  0x00, 0x00, 0x00, 0x01, 0x14, 0x00, 0x00, 0x00, 0x1c, 0x00, 0x00, 0x00,
  0x1c, 0x00, 0x00, 0x00, 0x0b, 0x00, 0x00, 0x00, 0x34, 0x00, 0x00, 0x00,
  0x02, 0x00, 0x00, 0x00, 0xff, 0xff, 0xff, 0xff, 0x03, 0x00, 0x00, 0x00,
  0xe8, 0xfb, 0xff, 0xff, 0x1b, 0x00, 0x00, 0x00, 0x53, 0x74, 0x61, 0x74,
  0x65, 0x66, 0x75, 0x6c, 0x50, 0x61, 0x72, 0x74, 0x69, 0x74, 0x69, 0x6f,
  0x6e, 0x65, 0x64, 0x43, 0x61, 0x6c, 0x6c, 0x5f, 0x31, 0x3a, 0x30, 0x00,
  0x02, 0x00, 0x00, 0x00, 0x01, 0x00, 0x00, 0x00, 0x03, 0x00, 0x00, 0x00,
  0x56, 0xfc, 0xff, 0xff, 0x00, 0x00, 0x00, 0x01, 0x14, 0x00, 0x00, 0x00,
  0x1c, 0x00, 0x00, 0x00, 0x1c, 0x00, 0x00, 0x00, 0x0a, 0x00, 0x00, 0x00,
  0x58, 0x00, 0x00, 0x00, 0x02, 0x00, 0x00, 0x00, 0xff, 0xff, 0xff, 0xff,
  0x03, 0x00, 0x00, 0x00, 0x40, 0xfc, 0xff, 0xff, 0x3c, 0x00, 0x00, 0x00,
  0x73, 0x65, 0x71, 0x75, 0x65, 0x6e, 0x74, 0x69, 0x61, 0x6c, 0x5f, 0x31,
  0x2f, 0x64, 0x65, 0x6e, 0x73, 0x65, 0x5f, 0x32, 0x5f, 0x31, 0x2f, 0x4d,
  0x61, 0x74, 0x4d, 0x75, 0x6c, 0x3b, 0x73, 0x65, 0x71, 0x75, 0x65, 0x6e,
  0x74, 0x69, 0x61, 0x6c, 0x5f, 0x31, 0x2f, 0x64, 0x65, 0x6e, 0x73, 0x65,
  0x5f, 0x32, 0x5f, 0x31, 0x2f, 0x42, 0x69, 0x61, 0x73, 0x41, 0x64, 0x64,
  0x00, 0x00, 0x00, 0x00, 0x02, 0x00, 0x00, 0x00, 0x01, 0x00, 0x00, 0x00,
  0x03, 0x00, 0x00, 0x00, 0xd2, 0xfc, 0xff, 0xff, 0x00, 0x00, 0x00, 0x01,
  0x14, 0x00, 0x00, 0x00, 0x1c, 0x00, 0x00, 0x00, 0x1c, 0x00, 0x00, 0x00,
  0x09, 0x00, 0x00, 0x00, 0x74, 0x00, 0x00, 0x00, 0x02, 0x00, 0x00, 0x00,
  0xff, 0xff, 0xff, 0xff, 0x10, 0x00, 0x00, 0x00, 0xbc, 0xfc, 0xff, 0xff,
  0x58, 0x00, 0x00, 0x00, 0x73, 0x65, 0x71, 0x75, 0x65, 0x6e, 0x74, 0x69,
  0x61, 0x6c, 0x5f, 0x31, 0x2f, 0x64, 0x65, 0x6e, 0x73, 0x65, 0x5f, 0x31,
  0x5f, 0x32, 0x2f, 0x4d, 0x61, 0x74, 0x4d, 0x75, 0x6c, 0x3b, 0x73, 0x65,
  0x71, 0x75, 0x65, 0x6e, 0x74, 0x69, 0x61, 0x6c, 0x5f, 0x31, 0x2f, 0x64,
  0x65, 0x6e, 0x73, 0x65, 0x5f, 0x31, 0x5f, 0x32, 0x2f, 0x52, 0x65, 0x6c,
  0x75, 0x3b, 0x73, 0x65, 0x71, 0x75, 0x65, 0x6e, 0x74, 0x69, 0x61, 0x6c,
  0x5f, 0x31, 0x2f, 0x64, 0x65, 0x6e, 0x73, 0x65, 0x5f, 0x31, 0x5f, 0x32,
  0x2f, 0x42, 0x69, 0x61, 0x73, 0x41, 0x64, 0x64, 0x00, 0x00, 0x00, 0x00,
  0x02, 0x00, 0x00, 0x00, 0x01, 0x00, 0x00, 0x00, 0x10, 0x00, 0x00, 0x00,
  0x6a, 0xfd, 0xff, 0xff, 0x00, 0x00, 0x00, 0x01, 0x14, 0x00, 0x00, 0x00,
  0x1c, 0x00, 0x00, 0x00, 0x1c, 0x00, 0x00, 0x00, 0x08, 0x00, 0x00, 0x00,
  0x6c, 0x00, 0x00, 0x00, 0x02, 0x00, 0x00, 0x00, 0xff, 0xff, 0xff, 0xff,
  0x20, 0x00, 0x00, 0x00, 0x54, 0xfd, 0xff, 0xff, 0x52, 0x00, 0x00, 0x00,
  0x73, 0x65, 0x71, 0x75, 0x65, 0x6e, 0x74, 0x69, 0x61, 0x6c, 0x5f, 0x31,
  0x2f, 0x64, 0x65, 0x6e, 0x73, 0x65, 0x5f, 0x31, 0x2f, 0x4d, 0x61, 0x74,
  0x4d, 0x75, 0x6c, 0x3b, 0x73, 0x65, 0x71, 0x75, 0x65, 0x6e, 0x74, 0x69,
  0x61, 0x6c, 0x5f, 0x31, 0x2f, 0x64, 0x65, 0x6e, 0x73, 0x65, 0x5f, 0x31,
  0x2f, 0x52, 0x65, 0x6c, 0x75, 0x3b, 0x73, 0x65, 0x71, 0x75, 0x65, 0x6e,
  0x74, 0x69, 0x61, 0x6c, 0x5f, 0x31, 0x2f, 0x64, 0x65, 0x6e, 0x73, 0x65,
  0x5f, 0x31, 0x2f, 0x42, 0x69, 0x61, 0x73, 0x41, 0x64, 0x64, 0x00, 0x00,
  0x02, 0x00, 0x00, 0x00, 0x01, 0x00, 0x00, 0x00, 0x20, 0x00, 0x00, 0x00,
  0x76, 0xfe, 0xff, 0xff, 0x00, 0x00, 0x00, 0x01, 0x10, 0x00, 0x00, 0x00,
  0x10, 0x00, 0x00, 0x00, 0x07, 0x00, 0x00, 0x00, 0x44, 0x00, 0x00, 0x00,
  0xd4, 0xfd, 0xff, 0xff, 0x36, 0x00, 0x00, 0x00, 0x73, 0x65, 0x71, 0x75,
  0x65, 0x6e, 0x74, 0x69, 0x61, 0x6c, 0x5f, 0x31, 0x2f, 0x64, 0x65, 0x6e,
  0x73, 0x65, 0x5f, 0x31, 0x2f, 0x52, 0x65, 0x6c, 0x75, 0x3b, 0x73, 0x65,
  0x71, 0x75, 0x65, 0x6e, 0x74, 0x69, 0x61, 0x6c, 0x5f, 0x31, 0x2f, 0x64,
  0x65, 0x6e, 0x73, 0x65, 0x5f, 0x31, 0x2f, 0x42, 0x69, 0x61, 0x73, 0x41,
  0x64, 0x64, 0x00, 0x00, 0x01, 0x00, 0x00, 0x00, 0x20, 0x00, 0x00, 0x00,
  0xd6, 0xfe, 0xff, 0xff, 0x00, 0x00, 0x00, 0x01, 0x10, 0x00, 0x00, 0x00,
  0x10, 0x00, 0x00, 0x00, 0x06, 0x00, 0x00, 0x00, 0x28, 0x00, 0x00, 0x00,
  0x34, 0xfe, 0xff, 0xff, 0x1b, 0x00, 0x00, 0x00, 0x73, 0x65, 0x71, 0x75,
  0x65, 0x6e, 0x74, 0x69, 0x61, 0x6c, 0x5f, 0x31, 0x2f, 0x64, 0x65, 0x6e,
  0x73, 0x65, 0x5f, 0x31, 0x2f, 0x4d, 0x61, 0x74, 0x4d, 0x75, 0x6c, 0x00,
  0x02, 0x00, 0x00, 0x00, 0x20, 0x00, 0x00, 0x00, 0x10, 0x00, 0x00, 0x00,
  0x1e, 0xff, 0xff, 0xff, 0x00, 0x00, 0x00, 0x01, 0x10, 0x00, 0x00, 0x00,
  0x10, 0x00, 0x00, 0x00, 0x05, 0x00, 0x00, 0x00, 0x2c, 0x00, 0x00, 0x00,
  0x7c, 0xfe, 0xff, 0xff, 0x1d, 0x00, 0x00, 0x00, 0x73, 0x65, 0x71, 0x75,
  0x65, 0x6e, 0x74, 0x69, 0x61, 0x6c, 0x5f, 0x31, 0x2f, 0x64, 0x65, 0x6e,
  0x73, 0x65, 0x5f, 0x31, 0x5f, 0x32, 0x2f, 0x4d, 0x61, 0x74, 0x4d, 0x75,
  0x6c, 0x00, 0x00, 0x00, 0x02, 0x00, 0x00, 0x00, 0x10, 0x00, 0x00, 0x00,
  0x20, 0x00, 0x00, 0x00, 0x6a, 0xff, 0xff, 0xff, 0x00, 0x00, 0x00, 0x01,
  0x10, 0x00, 0x00, 0x00, 0x10, 0x00, 0x00, 0x00, 0x04, 0x00, 0x00, 0x00,
  0x2c, 0x00, 0x00, 0x00, 0xc8, 0xfe, 0xff, 0xff, 0x1d, 0x00, 0x00, 0x00,
  0x73, 0x65, 0x71, 0x75, 0x65, 0x6e, 0x74, 0x69, 0x61, 0x6c, 0x5f, 0x31,
  0x2f, 0x64, 0x65, 0x6e, 0x73, 0x65, 0x5f, 0x32, 0x5f, 0x31, 0x2f, 0x4d,
  0x61, 0x74, 0x4d, 0x75, 0x6c, 0x00, 0x00, 0x00, 0x02, 0x00, 0x00, 0x00,
  0x03, 0x00, 0x00, 0x00, 0x10, 0x00, 0x00, 0x00, 0xb6, 0xff, 0xff, 0xff,
  0x00, 0x00, 0x00, 0x01, 0x10, 0x00, 0x00, 0x00, 0x10, 0x00, 0x00, 0x00,
  0x03, 0x00, 0x00, 0x00, 0x2c, 0x00, 0x00, 0x00, 0x14, 0xff, 0xff, 0xff,
  0x1e, 0x00, 0x00, 0x00, 0x73, 0x65, 0x71, 0x75, 0x65, 0x6e, 0x74, 0x69,
  0x61, 0x6c, 0x5f, 0x31, 0x2f, 0x64, 0x65, 0x6e, 0x73, 0x65, 0x5f, 0x32,
  0x5f, 0x31, 0x2f, 0x42, 0x69, 0x61, 0x73, 0x41, 0x64, 0x64, 0x00, 0x00,
  0x01, 0x00, 0x00, 0x00, 0x03, 0x00, 0x00, 0x00, 0x00, 0x00, 0x16, 0x00,
  0x18, 0x00, 0x14, 0x00, 0x00, 0x00, 0x10, 0x00, 0x0c, 0x00, 0x08, 0x00,
  0x00, 0x00, 0x00, 0x00, 0x00, 0x00, 0x07, 0x00, 0x16, 0x00, 0x00, 0x00,
  0x00, 0x00, 0x00, 0x01, 0x10, 0x00, 0x00, 0x00, 0x10, 0x00, 0x00, 0x00,
  0x02, 0x00, 0x00, 0x00, 0x48, 0x00, 0x00, 0x00, 0x74, 0xff, 0xff, 0xff,
  0x3a, 0x00, 0x00, 0x00, 0x73, 0x65, 0x71, 0x75, 0x65, 0x6e, 0x74, 0x69,
  0x61, 0x6c, 0x5f, 0x31, 0x2f, 0x64, 0x65, 0x6e, 0x73, 0x65, 0x5f, 0x31,
  0x5f, 0x32, 0x2f, 0x52, 0x65, 0x6c, 0x75, 0x3b, 0x73, 0x65, 0x71, 0x75,
  0x65, 0x6e, 0x74, 0x69, 0x61, 0x6c, 0x5f, 0x31, 0x2f, 0x64, 0x65, 0x6e,
  0x73, 0x65, 0x5f, 0x31, 0x5f, 0x32, 0x2f, 0x42, 0x69, 0x61, 0x73, 0x41,
  0x64, 0x64, 0x00, 0x00, 0x01, 0x00, 0x00, 0x00, 0x10, 0x00, 0x00, 0x00,
  0x00, 0x00, 0x16, 0x00, 0x1c, 0x00, 0x18, 0x00, 0x00, 0x00, 0x14, 0x00,
  0x10, 0x00, 0x0c, 0x00, 0x00, 0x00, 0x00, 0x00, 0x08, 0x00, 0x07, 0x00,
  0x16, 0x00, 0x00, 0x00, 0x00, 0x00, 0x00, 0x01, 0x14, 0x00, 0x00, 0x00,
  0x20, 0x00, 0x00, 0x00, 0x20, 0x00, 0x00, 0x00, 0x01, 0x00, 0x00, 0x00,
  0x3c, 0x00, 0x00, 0x00, 0x02, 0x00, 0x00, 0x00, 0xff, 0xff, 0xff, 0xff,
  0x10, 0x00, 0x00, 0x00, 0x04, 0x00, 0x04, 0x00, 0x04, 0x00, 0x00, 0x00,
  0x1e, 0x00, 0x00, 0x00, 0x73, 0x65, 0x72, 0x76, 0x69, 0x6e, 0x67, 0x5f,
  0x64, 0x65, 0x66, 0x61, 0x75, 0x6c, 0x74, 0x5f, 0x6b, 0x65, 0x72, 0x61,
  0x73, 0x5f, 0x74, 0x65, 0x6e, 0x73, 0x6f, 0x72, 0x3a, 0x30, 0x00, 0x00,
  0x02, 0x00, 0x00, 0x00, 0x01, 0x00, 0x00, 0x00, 0x10, 0x00, 0x00, 0x00,
  0x02, 0x00, 0x00, 0x00, 0x20, 0x00, 0x00, 0x00, 0x04, 0x00, 0x00, 0x00,
  0xf4, 0xff, 0xff, 0xff, 0x19, 0x00, 0x00, 0x00, 0x00, 0x00, 0x00, 0x19,
  0x0c, 0x00, 0x0c, 0x00, 0x0b, 0x00, 0x00, 0x00, 0x00, 0x00, 0x04, 0x00,
  0x0c, 0x00, 0x00, 0x00, 0x09, 0x00, 0x00, 0x00, 0x00, 0x00, 0x00, 0x09
};
